	111	112	113	114	115	116	117	118	119	120	156	157	158	159	160	544	545	546	166	167	168	169	170	176	177	178	179	180	550	551	552	136	137	138	139	140	146	147	148	149	150	186	187	188	189	190	126	127	128	129	130
Concentration	0	0	0	0	0	0	0	0	0	0	4	4	4	4	4	4	4	4	12	12	12	12	12	37	37	37	37	37	37	37	37	0.5	0.5	0.5	0.5	0.5	1.4	1.4	1.4	1.4	1.4	111	111	111	111	111	0.15	0.15	0.15	0.15	0.15
SD0	215.9	209.5	239.4	190.2	199.2	206.1	190.8	195.8	232	222.5	230.6	196	226.8	198.1	212.9	206.5	214.5	195.5	200	210.7	200	220.3	203	210.2	207.4	215	191.7	193.8	223.6	201.5	216.2	220.8	206.1	200.9	198	207.7	195.3	201.6	220.6	206.3	202.1	205.8	202.9	210	219.8	196.4	207.2	190.5	203.2	230.3	214.1
SD5	219.6	210.9	247.2	213.6	211.2	210.8	202.4	206.8	243.5	243.7	238.5	204	230	200.1	222.4	220.9	215.9	205.7	207	221.8	202.4	237.5	212.6	213	213.5	220.8	188.6	205.3	236.5	210.7	233.7	226.8	208.6	207	206.3	206.5	202.5	207.3	238.5	207.1	209.5	208	208.1	222.8	222.9	204.3	216.8	199.4	201.4	241.2	218.1
