	111	112	113	114	115	116	117	118	119	120	156	157	158	159	160	166	167	168	169	170	176	177	178	179	180	136	137	138	139	140	146	147	148	149	150	186	187	188	189	190	126	127	128	129	130
Concentration	0	0	0	0	0	0	0	0	0	0	4	4	4	4	4	12	12	12	12	12	37	37	37	37	37	0.5	0.5	0.5	0.5	0.5	1.4	1.4	1.4	1.4	1.4	111	111	111	111	111	0.15	0.15	0.15	0.15	0.15
Heart	0.94	0.83	0.95	0.79	0.77	0.82	0.85	0.74	0.94	0.92	0.94	0.84	0.92	0.73	0.92	0.85	0.78	0.72	0.91	0.8	0.87	0.79	0.84	0.7	0.83	0.96	0.81	0.78	0.82	0.84	0.78	0.79	0.9	0.79	0.87	0.73	0.8	0.85	0.83	0.71	0.85	0.83	0.78	0.88	0.82
Kidney-Left	0.72	0.62	0.75	0.62	0.6	0.62	0.63	0.61	0.77	0.8	0.68	0.62	0.61	0.6	0.65	0.6	0.71	0.61	0.64	0.66	0.72	0.66	0.68	0.52	0.62	0.66	0.61	0.58	0.57	0.66	0.64	0.61	0.75	0.65	0.59	0.66	0.63	0.64	0.64	0.66	0.68	0.73	0.64	0.75	0.64
Kidney-Right	0.73	0.64	0.81	0.64	0.62	0.7	0.65	0.6	0.78	0.82	0.71	0.64	0.65	0.64	0.67	0.64	0.75	0.62	0.65	0.63	0.75	0.69	0.7	0.59	0.65	0.71	0.65	0.6	0.57	0.66	0.67	0.63	0.74	0.69	0.63	0.67	0.67	0.66	0.64	0.62	0.69	0.68	0.63	0.75	0.66
Liver	8.44	8.31	8.61	8.47	7.56	7.74	8.04	7.24	8.54	8.81	8.8	7.15	7.8	6.97	8.75	7.88	7.62	6.68	8.73	7.43	8.35	8.69	7.93	6.95	7.72	7.84	7.11	7.59	6.82	7.71	7.51	7.93	9.6	6.98	7.35	8.72	8.1	8.56	8.83	8.19	8.17	7.15	7.09	8.62	7.54
Terminal Body Weight	219.6	210.9	247.2	213.6	211.2	210.8	202.4	206.8	243.5	243.7	238.5	204	230	200.1	222.4	207	221.8	202.4	237.5	212.6	213	213.5	220.8	188.6	205.3	226.8	208.6	207	206.3	206.5	202.5	207.3	238.5	207.1	209.5	208	208.1	222.8	222.9	204.3	216.8	199.4	201.4	241.2	218.1
