	101	102	103	104	105	106	107	108	109	110	151	152	153	154	155	161	162	163	164	165	171	172	173	174	175	131	132	133	134	135	141	142	143	144	145	181	182	183	184	185	121	122	123	124	125
Concentration	0	0	0	0	0	0	0	0	0	0	4	4	4	4	4	12	12	12	12	12	37	37	37	37	37	0.5	0.5	0.5	0.5	0.5	1.4	1.4	1.4	1.4	1.4	111	111	111	111	111	0.15	0.15	0.15	0.15	0.15
Heart	1.06	1.15	1.03	1.11	1.08	1.23	1.15	1.1	1.11	1.31	1.06	1.16	1.1	1.05	1.18	1.28	1.18	0.98	1.16	1.4	1.08	1.14	1.09	1.06	1.01	1.25	1.1	1.02	1.21	1.07	1.16	1.18	1.16	1.3	1.15	1.07	1.16	1.06	1.05	1.12	1.18	1.06	1.39	1.15	1.14
Kidney-Left	0.89	0.94	0.97	0.99	0.81	1.08	1	0.86	0.9	1.01	0.96	1.04	0.82	0.93	0.87	1.06	0.98	0.95	1.01	1.08	0.85	1.07	0.96	0.93	0.89	0.96	0.98	0.95	1.06	0.9	1.02	1.06	0.92	1.16	1	0.9	1.18	0.96	0.9	1.07	1.05	1	1	0.99	1.08
Kidney-Right	0.9	0.97	0.99	0.94	0.88	0.99	1.02	0.89	0.87	1.02	0.97	1.11	0.88	1	0.91	1.08	1.03	0.94	0.92	1.1	0.89	1.01	0.94	0.95	0.9	0.91	1.02	0.99	1.06	0.92	1.1	1.14	0.99	1.08	1.03	0.93	1.04	0.99	0.95	0.99	1.05	0.97	0.97	1.01	1.1
Liver	10.72	11.83	10.2	11.28	10.25	13.12	12.56	11.62	10.95	12.28	12.56	12.51	11.41	11.81	10.69	13.94	12.76	12.11	12.64	14.24	13.03	13.8	12.2	12.36	12.34	12.74	12.28	11.68	13.19	11.68	11.36	13.28	12.05	13.06	12.65	14.3	13.99	14.42	14.65	14.2	11.66	10.85	12.7	11.89	12.92
Terminal Body Weight	300.3	315.1	296.2	308.6	288.2	329.4	337.4	325.6	294.5	314.5	314.5	314.5	297	317	297.8	328	318.4	316.3	324.1	342.9	303.4	314.9	310.8	295.1	318.6	313.7	313.2	314	320.6	315.9	318	309.1	320.7	337.6	315.3	318	306.9	309	295.1	314	309.5	304.1	313.7	309.2	333.4
