	101	102	103	104	105	106	107	108	109	110	151	152	153	154	155	541	542	543	161	162	163	164	165	171	172	173	174	175	547	548	549	131	132	133	134	135	141	142	143	144	145	181	182	183	184	185	121	122	123	124	125
Concentration	0	0	0	0	0	0	0	0	0	0	4	4	4	4	4	4	4	4	12	12	12	12	12	37	37	37	37	37	37	37	37	0.5	0.5	0.5	0.5	0.5	1.4	1.4	1.4	1.4	1.4	111	111	111	111	111	0.15	0.15	0.15	0.15	0.15
SD0	285.1	301.6	281.3	294	282.4	309.8	313.8	316.3	279.4	301.5	294.5	295.7	281.6	303.8	287.3	285.5	310.3	299.4	305.6	303.7	297	299.7	314.6	285	299.9	292.5	284.2	304.5	276.1	308.5	314	290.6	295.7	299.7	299	294.4	294.5	296.4	304.8	322.5	300.1	309.8	305.3	297.6	275.7	304.1	295.4	288	294.1	294.8	314.4
SD5	300.3	315.1	296.2	308.6	288.2	329.4	337.4	325.6	294.5	314.5	314.5	314.5	297	317	297.8	303.1	333.2	311.4	328	318.4	316.3	324.1	342.9	303.4	314.9	310.8	295.1	318.6	291.5	325.1	331.9	313.7	313.2	314	320.6	315.9	318	309.1	320.7	337.6	315.3	318	306.9	309	295.1	314	309.5	304.1	313.7	309.2	333.4
